TRT-6200-EntropyCalibration2
input: 3ca5b060
446: 3c8bd0c9
447: 3c8bd0c9
448: 3c8bd0c9
449: 3d221ec6
450: 3d13bced
451: 3cdcda3e
452: 3cdcda3e
453: 3cdcda3e
454: 3d1de25f
455: 3ccb843c
456: 3c151522
457: 3bd44436
458: 3c73aa64
460: 3c665e5f
461: 3b762577
462: 3b742e7f
463: 3bef9bc3
465: 3cafb364
466: 3cd032a2
467: 3bb8017f
468: 3bbf48dc
469: 3c3e0a56
471: 3c3e0a56
472: 3b30cb03
473: 3b36f4cc
474: 3bc9cd2f
476: 3caaa6fb
477: 3cdc420e
478: 3ba970d0
479: 3bae4423
480: 3c3b0f7b
482: 3c45722e
483: 3b2bc1f7
484: 3b39e527
485: 3bbe8d20
487: 3cab8a1f
488: 3cd6afac
489: 3bb2a006
490: 3bc3a047
491: 3c3246da
493: 3c2faee7
494: 3b2c2468
495: 3b33ba80
496: 3bb51697
498: 3cac1338
499: 3cd97b18
500: 3bb46736
501: 3bbad38d
502: 3c41d5d8
504: 3c3f30a3
505: 3b298f37
506: 3b44d24b
507: 3bb0e461
509: 3cacd9b5
510: 3cda75f6
511: 3cda75f6
512: 3cda75f6
513: 3cda75f6
514: 3c96266b
515: 3ca1fbc4
516: 3b9fcbe5
517: 3ba93730
518: 3c3f8d1c
520: 3c47bbe7
521: 3b3743f3
522: 3b3743f3
523: 3b9a2b96
525: 3c8bbf9b
526: 3c90798b
527: 3b8cc373
528: 3b8cfd9f
529: 3c2b4e5f
531: 3c33eea9
532: 3b12c6a9
533: 3b182409
534: 3b8f610a
536: 3c93e42a
537: 3c957c34
538: 3b616261
539: 3b6b5b12
540: 3c06ba7e
542: 3c0bf889
543: 3aeed947
544: 3af141de
545: 3b5eb670
547: 3c8ac28a
548: 3c9a37a3
549: 3b635409
550: 3b67e9a0
551: 3bf049ce
553: 3bf2be12
554: 3ae90167
555: 3ae90167
556: 3b323ce9
558: 3c8efd39
559: 3c9e6d75
560: 3b82b9b3
561: 3b8292fe
562: 3c127c44
564: 3c16dbac
565: 3b0291f1
566: 3b030e96
567: 3b80a63b
569: 3c91febd
570: 3ca1b447
571: 3b77e370
572: 3b7c1223
573: 3c20aef0
575: 3c2ec8cc
576: 3b159e8a
577: 3b2488b5
578: 3b95bd2d
580: 3ca46785
581: 3ca52ad2
582: 3b7d6e9e
583: 3b906e84
584: 3c156d51
586: 3c1b3ae1
587: 3b07cdbd
588: 3b0955e9
589: 3b72fc79
591: 3ca6fc98
592: 3cb0c586
593: 3b707953
594: 3b87f9da
595: 3bfd6154
597: 3c006d33
598: 3ac69920
599: 3ad46761
600: 3b37f07d
602: 3cad2117
603: 3caf3d2e
604: 3bae675f
605: 3c819585
606: 3c8299b4
607: 3b6540fd
608: 3b721878
609: 3c0570dd
611: 3c0fe288
612: 3b1fed11
613: 3b1fed11
614: 3be4e4e0
616: 3c5e2c8b
617: 3c6f0894
618: 3b553755
619: 3b61518c
620: 3bf511b9
622: 3c01bac6
623: 3b1f3648
624: 3b2d8139
625: 3bf54f9f
627: 3c77fec7
628: 3c8094d2
629: 3bc55109
630: 3cabdc8d
631: 3cabdc8d
632: 3beed599
633: 3bed9a99
634: 3c84329b
636: 3c9079e2
637: 3be00c5b
638: 3bee53f5
639: 3d2a397f
641: 3d2edcce
642: 3d311176
643: 3c8db41b
644: 3c8e2910
645: 3ce80056
647: 3d014163
648: 3c63f182
649: 3c68d1b6
650: 3d31369e
652: 3da75cd1
653: 3dc52697
654: 3d9afdfa
655: 42d1f268
656: 42d1f270
output/cls: 3c01f3e2
658: 3bc7ac14
659: 3c926f41
660: 3c926f41
661: 3b75124a
662: 3b7e33d8
663: 3c1365e1
665: 3c1bf2ab
666: 3b2ea809
667: 3b3ef8f5
668: 3bdac42e
670: 3c56848d
671: 3c6635a4
672: 3b64695c
673: 3b6cef75
674: 3bcf984f
676: 3bdd41ed
677: 3af44eea
678: 3afb69be
679: 3b944984
681: 3c54e577
682: 3c58920c
683: 3b2a2ef5
684: 3cc08bd4
685: 3cc0c225
686: 3bdafeca
687: 3bde1f3e
688: 3cacd84d
690: 3cbb41e3
691: 3c13fbb1
692: 3c16e741
693: 3d5a3e1d
695: 3d7e48ef
696: 3d86a03b
697: 3c8530f5
698: 3c85e545
699: 3cdc723e
701: 3ce9df82
702: 3c46275f
703: 3c73e4a6
704: 3d6c0218
706: 3e3558aa
707: 3de28463
708: 3d9ffe95
709: 43e4dc84
710: 43e4e538
output/ego: 3c01f3b9
712: 3c83c5bf
714: 3c8acd8c
715: 3d3ba565
716: 3ecf5204
717: 3f226800
718: 3c0b39ac
719: 3c0b39ac
721: 3c04e4e4
(Unnamed Layer* 232) [Constant]_output: 3920e46a
(Unnamed Layer* 233) [Constant]_output: 398ed7a5
(Unnamed Layer* 234) [Matrix Multiply]_output: 3d207b0c
722: 3d2108e3
723: 3d2d21f2
(Unnamed Layer* 237) [Constant]_output: 3a3210b1
(Unnamed Layer* 238) [Constant]_output: 3b101f35
(Unnamed Layer* 239) [Matrix Multiply]_output: 3daef245
724: 3db6dede
output/exist: 3c0aa2e9
